
#ifdef __has_attribute
#define HAVE_ATTRIBUTE(x) __has_attribute(x)
#else
#define HAVE_ATTRIBUTE(x) 0
#endif
#if HAVE_ATTRIBUTE(aligned) || (defined(__GNUC__) && !defined(__clang__))
#define DATA_ALIGN_ATTRIBUTE __attribute__((aligned(4)))
#else
#define DATA_ALIGN_ATTRIBUTE
#endif

const unsigned char model_data[] DATA_ALIGN_ATTRIBUTE = {
	0x1c, 0x00, 0x00, 0x00, 0x54, 0x46, 0x4c, 0x33, 0x00, 0x00, 0x12, 0x00, 
	0x1c, 0x00, 0x04, 0x00, 0x08, 0x00, 0x0c, 0x00, 0x10, 0x00, 0x14, 0x00, 
	0x00, 0x00, 0x18, 0x00, 0x12, 0x00, 0x00, 0x00, 0x03, 0x00, 0x00, 0x00, 
	0x40, 0x0a, 0x00, 0x00, 0x10, 0x00, 0x00, 0x00, 0x1c, 0x00, 0x00, 0x00, 
	0x2c, 0x00, 0x00, 0x00, 0x0c, 0x00, 0x00, 0x00, 0x01, 0x00, 0x00, 0x00, 
	0xec, 0x00, 0x00, 0x00, 0x01, 0x00, 0x00, 0x00, 0xb4, 0x00, 0x00, 0x00, 
	0x0f, 0x00, 0x00, 0x00, 0x54, 0x4f, 0x43, 0x4f, 0x20, 0x43, 0x6f, 0x6e, 
	0x76, 0x65, 0x72, 0x74, 0x65, 0x64, 0x2e, 0x00, 0x0c, 0x00, 0x00, 0x00, 
	0x88, 0x00, 0x00, 0x00, 0x7c, 0x00, 0x00, 0x00, 0x68, 0x00, 0x00, 0x00, 
	0x54, 0x00, 0x00, 0x00, 0x48, 0x00, 0x00, 0x00, 0x3c, 0x00, 0x00, 0x00, 
	0x34, 0x00, 0x00, 0x00, 0x2c, 0x00, 0x00, 0x00, 0x20, 0x00, 0x00, 0x00, 
	0x18, 0x00, 0x00, 0x00, 0x10, 0x00, 0x00, 0x00, 0x04, 0x00, 0x00, 0x00, 
	0xb6, 0xff, 0xff, 0xff, 0x58, 0x00, 0x00, 0x00, 0xc8, 0xf6, 0xff, 0xff, 
	0xcc, 0xf6, 0xff, 0xff, 0xc6, 0xff, 0xff, 0xff, 0xa4, 0x01, 0x00, 0x00, 
	0xd8, 0xf6, 0xff, 0xff, 0xdc, 0xf6, 0xff, 0xff, 0xd6, 0xff, 0xff, 0xff, 
	0xb0, 0x02, 0x00, 0x00, 0xde, 0xff, 0xff, 0xff, 0x48, 0x03, 0x00, 0x00, 
	0xf6, 0xff, 0xff, 0xff, 0x88, 0x07, 0x00, 0x00, 0x00, 0x00, 0x06, 0x00, 
	0x0a, 0x00, 0x04, 0x00, 0x06, 0x00, 0x00, 0x00, 0x00, 0x08, 0x00, 0x00, 
	0x00, 0x00, 0x06, 0x00, 0x08, 0x00, 0x04, 0x00, 0x06, 0x00, 0x00, 0x00, 
	0x64, 0x08, 0x00, 0x00, 0x18, 0xf7, 0xff, 0xff, 0x05, 0x00, 0x00, 0x00, 
	0x31, 0x2e, 0x35, 0x2e, 0x30, 0x00, 0x00, 0x00, 0xfc, 0xfd, 0xff, 0xff, 
	0x08, 0x00, 0x00, 0x00, 0x0b, 0x00, 0x00, 0x00, 0x13, 0x00, 0x00, 0x00, 
	0x6d, 0x69, 0x6e, 0x5f, 0x72, 0x75, 0x6e, 0x74, 0x69, 0x6d, 0x65, 0x5f, 
	0x76, 0x65, 0x72, 0x73, 0x69, 0x6f, 0x6e, 0x00, 0x0c, 0x00, 0x14, 0x00, 
	0x04, 0x00, 0x08, 0x00, 0x0c, 0x00, 0x10, 0x00, 0x0c, 0x00, 0x00, 0x00, 
	0x20, 0x00, 0x00, 0x00, 0x14, 0x00, 0x00, 0x00, 0x08, 0x00, 0x00, 0x00, 
	0x54, 0x08, 0x00, 0x00, 0x01, 0x00, 0x00, 0x00, 0x00, 0x00, 0x00, 0x00, 
	0x01, 0x00, 0x00, 0x00, 0x01, 0x00, 0x00, 0x00, 0x0a, 0x00, 0x00, 0x00, 
	0x68, 0x00, 0x00, 0x00, 0x78, 0x01, 0x00, 0x00, 0x94, 0x00, 0x00, 0x00, 
	0xc4, 0x01, 0x00, 0x00, 0x2c, 0x01, 0x00, 0x00, 0x44, 0x02, 0x00, 0x00, 
	0xa0, 0x06, 0x00, 0x00, 0x0c, 0x00, 0x00, 0x00, 0x7c, 0x07, 0x00, 0x00, 
	0x1c, 0x07, 0x00, 0x00, 0x9a, 0xf8, 0xff, 0xff, 0x10, 0x00, 0x00, 0x00, 
	0x0a, 0x00, 0x00, 0x00, 0x14, 0x00, 0x00, 0x00, 0x2c, 0x00, 0x00, 0x00, 
	0x02, 0x00, 0x00, 0x00, 0x01, 0x00, 0x00, 0x00, 0x10, 0x00, 0x00, 0x00, 
	0x17, 0x00, 0x00, 0x00, 0x73, 0x65, 0x71, 0x75, 0x65, 0x6e, 0x74, 0x69, 
	0x61, 0x6c, 0x2f, 0x64, 0x65, 0x6e, 0x73, 0x65, 0x5f, 0x31, 0x2f, 0x52, 
	0x65, 0x6c, 0x75, 0x00, 0xe4, 0xf7, 0xff, 0xff, 0xda, 0xf8, 0xff, 0xff, 
	0x10, 0x00, 0x00, 0x00, 0x09, 0x00, 0x00, 0x00, 0x14, 0x00, 0x00, 0x00, 
	0x20, 0x00, 0x00, 0x00, 0x02, 0x00, 0x00, 0x00, 0x01, 0x00, 0x00, 0x00, 
	0x01, 0x00, 0x00, 0x00, 0x08, 0x00, 0x00, 0x00, 0x49, 0x64, 0x65, 0x6e, 
	0x74, 0x69, 0x74, 0x79, 0x00, 0x00, 0x00, 0x00, 0x18, 0xf8, 0xff, 0xff, 
	0x0e, 0xf9, 0xff, 0xff, 0x10, 0x00, 0x00, 0x00, 0x08, 0x00, 0x00, 0x00, 
	0x14, 0x00, 0x00, 0x00, 0x48, 0x00, 0x00, 0x00, 0x02, 0x00, 0x00, 0x00, 
	0x10, 0x00, 0x00, 0x00, 0x01, 0x00, 0x00, 0x00, 0x30, 0x00, 0x00, 0x00, 
	0x73, 0x65, 0x71, 0x75, 0x65, 0x6e, 0x74, 0x69, 0x61, 0x6c, 0x2f, 0x64, 
	0x65, 0x6e, 0x73, 0x65, 0x2f, 0x4d, 0x61, 0x74, 0x4d, 0x75, 0x6c, 0x2f, 
	0x52, 0x65, 0x61, 0x64, 0x56, 0x61, 0x72, 0x69, 0x61, 0x62, 0x6c, 0x65, 
	0x4f, 0x70, 0x2f, 0x74, 0x72, 0x61, 0x6e, 0x73, 0x70, 0x6f, 0x73, 0x65, 
	0x00, 0x00, 0x00, 0x00, 0x74, 0xf8, 0xff, 0xff, 0x40, 0x00, 0x00, 0x00, 
	0xe6, 0x2b, 0xe1, 0x3e, 0xcf, 0x9b, 0x82, 0x3e, 0x6b, 0x79, 0xe7, 0xbe, 
	0x67, 0x02, 0x9c, 0x3e, 0x83, 0x84, 0x00, 0x3f, 0xff, 0x15, 0x07, 0x3e, 
	0xe7, 0xe6, 0x18, 0x3e, 0x97, 0x3f, 0x54, 0x3e, 0x45, 0x3b, 0x3d, 0x3e, 
	0xd3, 0xc0, 0xe8, 0x3e, 0x1b, 0x45, 0xef, 0x3e, 0x48, 0x83, 0x06, 0x3f, 
	0xd7, 0x96, 0x9f, 0xbe, 0xab, 0xbe, 0x2e, 0x3e, 0x0c, 0x7e, 0x00, 0x3e, 
	0xd7, 0x61, 0xf2, 0xbe, 0xae, 0xf9, 0xff, 0xff, 0x10, 0x00, 0x00, 0x00, 
	0x07, 0x00, 0x00, 0x00, 0x14, 0x00, 0x00, 0x00, 0x2c, 0x00, 0x00, 0x00, 
	0x02, 0x00, 0x00, 0x00, 0x01, 0x00, 0x00, 0x00, 0x10, 0x00, 0x00, 0x00, 
	0x15, 0x00, 0x00, 0x00, 0x73, 0x65, 0x71, 0x75, 0x65, 0x6e, 0x74, 0x69, 
	0x61, 0x6c, 0x2f, 0x64, 0x65, 0x6e, 0x73, 0x65, 0x2f, 0x52, 0x65, 0x6c, 
	0x75, 0x00, 0x00, 0x00, 0xf8, 0xf8, 0xff, 0xff, 0xee, 0xf9, 0xff, 0xff, 
	0x10, 0x00, 0x00, 0x00, 0x06, 0x00, 0x00, 0x00, 0x14, 0x00, 0x00, 0x00, 
	0x28, 0x00, 0x00, 0x00, 0x02, 0x00, 0x00, 0x00, 0x01, 0x00, 0x00, 0x00, 
	0x01, 0x00, 0x00, 0x00, 0x0b, 0x00, 0x00, 0x00, 0x64, 0x65, 0x6e, 0x73, 
	0x65, 0x5f, 0x69, 0x6e, 0x70, 0x75, 0x74, 0x00, 0x08, 0x00, 0x0c, 0x00, 
	0x04, 0x00, 0x08, 0x00, 0x08, 0x00, 0x00, 0x00, 0x10, 0x00, 0x00, 0x00, 
	0x04, 0x00, 0x00, 0x00, 0x01, 0x00, 0x00, 0x00, 0x00, 0x00, 0x7f, 0x43, 
	0x01, 0x00, 0x00, 0x00, 0x00, 0x00, 0x00, 0x00, 0x42, 0xfa, 0xff, 0xff, 
	0x10, 0x00, 0x00, 0x00, 0x05, 0x00, 0x00, 0x00, 0x10, 0x00, 0x00, 0x00, 
	0x30, 0x00, 0x00, 0x00, 0x01, 0x00, 0x00, 0x00, 0x10, 0x00, 0x00, 0x00, 
	0x1c, 0x00, 0x00, 0x00, 0x73, 0x65, 0x71, 0x75, 0x65, 0x6e, 0x74, 0x69, 
	0x61, 0x6c, 0x2f, 0x64, 0x65, 0x6e, 0x73, 0x65, 0x2f, 0x4d, 0x61, 0x74, 
	0x4d, 0x75, 0x6c, 0x5f, 0x62, 0x69, 0x61, 0x73, 0x00, 0x00, 0x00, 0x00, 
	0x90, 0xf9, 0xff, 0xff, 0x40, 0x00, 0x00, 0x00, 0xc2, 0x90, 0x53, 0xbe, 
	0x15, 0xa1, 0x2c, 0xbf, 0x00, 0x00, 0x00, 0x00, 0x7b, 0x58, 0x11, 0xbf, 
	0xb0, 0x0e, 0xa6, 0xbe, 0x87, 0xda, 0x27, 0x3f, 0x9d, 0xbb, 0xa1, 0xbe, 
	0xb8, 0xbc, 0xfb, 0xbe, 0xe2, 0x22, 0x33, 0xbe, 0xab, 0x8f, 0x58, 0xbd, 
	0xc0, 0xe1, 0x92, 0x3d, 0xc4, 0xef, 0x01, 0x3e, 0x00, 0x00, 0x00, 0x00, 
	0xe8, 0x7c, 0x8a, 0xbe, 0xc8, 0x5f, 0x66, 0xbe, 0x00, 0x00, 0x00, 0x00, 
	0xca, 0xfa, 0xff, 0xff, 0x10, 0x00, 0x00, 0x00, 0x04, 0x00, 0x00, 0x00, 
	0x14, 0x00, 0x00, 0x00, 0x48, 0x00, 0x00, 0x00, 0x02, 0x00, 0x00, 0x00, 
	0x10, 0x00, 0x00, 0x00, 0x10, 0x00, 0x00, 0x00, 0x32, 0x00, 0x00, 0x00, 
	0x73, 0x65, 0x71, 0x75, 0x65, 0x6e, 0x74, 0x69, 0x61, 0x6c, 0x2f, 0x64, 
	0x65, 0x6e, 0x73, 0x65, 0x5f, 0x31, 0x2f, 0x4d, 0x61, 0x74, 0x4d, 0x75, 
	0x6c, 0x2f, 0x52, 0x65, 0x61, 0x64, 0x56, 0x61, 0x72, 0x69, 0x61, 0x62, 
	0x6c, 0x65, 0x4f, 0x70, 0x2f, 0x74, 0x72, 0x61, 0x6e, 0x73, 0x70, 0x6f, 
	0x73, 0x65, 0x00, 0x00, 0x30, 0xfa, 0xff, 0xff, 0x00, 0x04, 0x00, 0x00, 
	0x8e, 0x87, 0xcd, 0x3e, 0xce, 0x40, 0xba, 0xbc, 0x58, 0x08, 0x2f, 0xbe, 
	0x23, 0x6e, 0xff, 0x3e, 0xab, 0xaa, 0x43, 0xbe, 0xb1, 0x1c, 0xa1, 0xbe, 
	0x82, 0xfa, 0x85, 0xbb, 0xbf, 0xdd, 0x01, 0xbe, 0xfd, 0x1a, 0x15, 0x3d, 
	0xb3, 0x6f, 0x66, 0xbd, 0xa2, 0x35, 0x54, 0x3e, 0x11, 0xd0, 0x61, 0xbe, 
	0x8a, 0x57, 0x1b, 0x3e, 0x46, 0x30, 0x5a, 0x3e, 0x2b, 0x97, 0xe9, 0xbd, 
	0x65, 0xec, 0xc2, 0x3e, 0x96, 0x12, 0xd6, 0xbe, 0xfc, 0xf6, 0xc3, 0xbe, 
	0x06, 0x12, 0xcf, 0xbe, 0x4f, 0x39, 0xb3, 0x3e, 0xe0, 0x07, 0x46, 0x3c, 
	0xa8, 0x85, 0x42, 0xbd, 0x59, 0x92, 0x84, 0x3e, 0xfc, 0xba, 0x86, 0x3d, 
	0x20, 0x48, 0x89, 0xbd, 0xfa, 0xfb, 0x99, 0xbe, 0x46, 0xa5, 0xb2, 0xbe, 
	0x9c, 0xcf, 0xcf, 0xbd, 0x95, 0xfe, 0x6e, 0xbe, 0xfc, 0xc2, 0xa6, 0x3d, 
	0xfe, 0x02, 0x5f, 0xbe, 0x44, 0xf6, 0xc6, 0x3d, 0x9e, 0x05, 0x20, 0xbf, 
	0xc8, 0x08, 0xc7, 0xbe, 0x23, 0x19, 0xdb, 0x3e, 0x3c, 0x34, 0x0d, 0x3d, 
	0x7c, 0x11, 0x0d, 0xbe, 0xde, 0xa2, 0xb5, 0x3d, 0xc9, 0x3e, 0x5a, 0xbe, 
	0x15, 0x5e, 0x3b, 0x3e, 0x28, 0x26, 0x1e, 0xbf, 0x5e, 0x81, 0xa0, 0x3e, 
	0x99, 0x05, 0xc6, 0xbd, 0x81, 0x47, 0x0b, 0x3e, 0x7b, 0x43, 0x93, 0x3e, 
	0xca, 0xd0, 0xbd, 0xbe, 0xbd, 0x0e, 0xb3, 0x3e, 0xd6, 0x16, 0x03, 0xbe, 
	0x5d, 0xed, 0xd5, 0x3d, 0x4d, 0x5f, 0x3d, 0x3e, 0x74, 0xfb, 0xa6, 0xbd, 
	0xc4, 0x90, 0x08, 0xbe, 0x5f, 0x19, 0xad, 0xbd, 0xa2, 0x6d, 0x62, 0xbe, 
	0xb2, 0xb0, 0x91, 0x3e, 0x40, 0x62, 0x9c, 0xbe, 0x03, 0xe9, 0x17, 0x3e, 
	0xfd, 0xc0, 0xfa, 0x3d, 0x9e, 0xbb, 0xd6, 0x3c, 0xf7, 0x72, 0x90, 0x3e, 
	0xdf, 0xcb, 0xb6, 0xbe, 0xc1, 0xf5, 0xd3, 0x3e, 0x75, 0x26, 0x27, 0x3e, 
	0x45, 0x22, 0xce, 0x3e, 0x47, 0xf1, 0x28, 0x3e, 0x5c, 0xa4, 0x81, 0xbe, 
	0x7e, 0xb8, 0x05, 0x3e, 0xbd, 0xeb, 0x2c, 0x3e, 0x70, 0x8d, 0xf5, 0x3d, 
	0x5d, 0xb9, 0x08, 0x3d, 0x60, 0x8f, 0x98, 0xbe, 0x49, 0xd3, 0xc4, 0xbe, 
	0x9f, 0x8e, 0xe0, 0x3d, 0x9e, 0x27, 0xb9, 0x3e, 0x74, 0x92, 0xce, 0xbd, 
	0x9b, 0xd2, 0x66, 0x3d, 0x67, 0x63, 0x9b, 0x3e, 0xa7, 0xab, 0xbb, 0x3e, 
	0x3a, 0x37, 0xe5, 0xbd, 0x5f, 0xcd, 0x87, 0x3e, 0x19, 0x1c, 0x64, 0xbe, 
	0x8d, 0xa6, 0x3c, 0x3f, 0x81, 0x16, 0xb0, 0x3e, 0xa5, 0x17, 0x32, 0x3e, 
	0x99, 0x47, 0x8a, 0x3e, 0xe0, 0x91, 0x0e, 0xbf, 0xb3, 0xed, 0x99, 0x3e, 
	0xe3, 0x08, 0x79, 0x3e, 0x9b, 0xde, 0x62, 0x3e, 0xd1, 0xc7, 0x91, 0x3e, 
	0xbe, 0xc1, 0xb3, 0xbe, 0xbc, 0x3e, 0x98, 0x3a, 0xe5, 0xe8, 0x48, 0xbe, 
	0xe9, 0xd8, 0x80, 0x3e, 0x19, 0xad, 0xa1, 0x3e, 0xef, 0xe7, 0xbd, 0xbe, 
	0xee, 0x4d, 0x43, 0xbe, 0xa6, 0x27, 0x63, 0xbe, 0xb3, 0x12, 0xa1, 0x3e, 
	0x2e, 0xfe, 0x77, 0x3e, 0x25, 0xfc, 0x71, 0x3e, 0x8a, 0x85, 0x91, 0xbe, 
	0x49, 0xfc, 0x07, 0xbf, 0x8c, 0xe2, 0x13, 0xbc, 0x24, 0xed, 0xb7, 0x3e, 
	0x37, 0xdd, 0x5e, 0x3c, 0x24, 0x84, 0x17, 0x3e, 0x78, 0xca, 0x27, 0xbe, 
	0x30, 0xc6, 0xe3, 0xbd, 0x18, 0xfb, 0x0a, 0x3e, 0xa7, 0xfc, 0xc7, 0xbc, 
	0x96, 0x09, 0x7b, 0x3e, 0x32, 0x7a, 0x66, 0xbe, 0xf6, 0x1c, 0x4c, 0x3e, 
	0x7e, 0x8f, 0x30, 0xbe, 0xad, 0x77, 0x9b, 0x3e, 0x2e, 0xa0, 0x28, 0x3e, 
	0x27, 0x0b, 0x58, 0xbd, 0xea, 0x94, 0x7a, 0xbe, 0x3e, 0x1a, 0x10, 0x3e, 
	0x01, 0xf0, 0x9c, 0x3c, 0x59, 0xfb, 0xac, 0x3d, 0x09, 0xc6, 0x8c, 0xbd, 
	0x7e, 0x5c, 0xa5, 0x3e, 0x56, 0x7b, 0x22, 0xbe, 0x6d, 0x1c, 0xb1, 0xbe, 
	0xc3, 0xde, 0x49, 0x3e, 0xec, 0x2c, 0xb2, 0xbe, 0xbb, 0x5b, 0xbd, 0xbd, 
	0x20, 0xe3, 0x4f, 0xbf, 0xf2, 0x6f, 0x66, 0xbe, 0xee, 0x00, 0x54, 0xbe, 
	0xee, 0xe6, 0x12, 0xba, 0x5b, 0xcb, 0xd1, 0x3e, 0xf0, 0x8a, 0x8b, 0xbf, 
	0xf0, 0x2e, 0x13, 0xbf, 0x5e, 0xe0, 0x65, 0xbe, 0x06, 0xe9, 0xb5, 0x3d, 
	0xb7, 0x77, 0xd4, 0x3d, 0xeb, 0x58, 0x63, 0x3e, 0x99, 0x7e, 0xac, 0x3e, 
	0x0f, 0x6d, 0x07, 0xbf, 0x92, 0x2d, 0x48, 0xbf, 0x51, 0xa9, 0xbe, 0x3e, 
	0x50, 0x3a, 0xc1, 0xbd, 0x54, 0x35, 0x8c, 0x3e, 0x9a, 0x90, 0xb6, 0xbe, 
	0x22, 0xe7, 0x54, 0x3e, 0xc8, 0xb3, 0xa3, 0x3e, 0x77, 0xb9, 0x77, 0xbe, 
	0x58, 0x84, 0x7d, 0x3e, 0x41, 0xb2, 0xdd, 0x3e, 0x92, 0x1a, 0x55, 0xbe, 
	0xdb, 0x16, 0x3a, 0xbe, 0x7c, 0x02, 0xb6, 0x3e, 0x8f, 0x42, 0x4d, 0xbd, 
	0x30, 0x7d, 0x8c, 0x3c, 0xb0, 0xd7, 0x64, 0xbe, 0x4b, 0x74, 0x9f, 0xbb, 
	0x5d, 0x8e, 0xaa, 0x3e, 0x34, 0x9f, 0x76, 0x3d, 0xd4, 0x1b, 0xc7, 0xbe, 
	0x65, 0x52, 0xab, 0xbe, 0x06, 0x30, 0x68, 0x3e, 0x06, 0x45, 0x93, 0x3e, 
	0x9d, 0x10, 0x01, 0x3d, 0x93, 0x17, 0xc2, 0x3c, 0xc4, 0x15, 0x59, 0x3e, 
	0x0b, 0xcc, 0xc6, 0x3e, 0xfe, 0xd6, 0x30, 0x3d, 0x60, 0xbc, 0xad, 0xbe, 
	0x93, 0x1b, 0xa3, 0x3e, 0x5c, 0x73, 0x48, 0xbe, 0x00, 0xb1, 0x47, 0xbd, 
	0xa5, 0x29, 0x94, 0x3e, 0x19, 0x0d, 0xb5, 0x3e, 0xa4, 0x0a, 0x62, 0x3e, 
	0xd9, 0x8a, 0x87, 0x3e, 0x4c, 0x82, 0x91, 0xbe, 0x00, 0x26, 0xa4, 0x3e, 
	0x26, 0x74, 0xcf, 0xbe, 0x18, 0xaf, 0x12, 0x3f, 0x45, 0xd4, 0xbd, 0x3e, 
	0x63, 0xf2, 0xcf, 0xbc, 0xf8, 0xeb, 0x04, 0x3f, 0xa4, 0xcc, 0x99, 0xbe, 
	0xa5, 0x66, 0xe7, 0xbe, 0xa9, 0xd5, 0xd6, 0xbe, 0x10, 0x34, 0x95, 0x3c, 
	0x53, 0x9a, 0x82, 0x3e, 0x62, 0xad, 0xe0, 0xbe, 0x2a, 0xed, 0x5d, 0x3e, 
	0xe9, 0x1b, 0x01, 0xbe, 0xc2, 0x7b, 0x72, 0x3e, 0xda, 0x04, 0x4c, 0x3e, 
	0x00, 0xad, 0x71, 0xbd, 0x82, 0xbd, 0xb7, 0x3e, 0x97, 0x98, 0x18, 0xbe, 
	0x23, 0x9a, 0x5f, 0x3d, 0x94, 0xb0, 0x6b, 0xbc, 0x13, 0x3d, 0x97, 0x3e, 
	0x44, 0x0b, 0xe4, 0x3e, 0x3e, 0x26, 0xac, 0xbe, 0xaf, 0x0e, 0xe4, 0x3d, 
	0xa0, 0x27, 0x05, 0x3d, 0x97, 0xd0, 0xb0, 0x3e, 0x73, 0x65, 0x84, 0x3e, 
	0x65, 0x97, 0xdd, 0x3e, 0xf7, 0xbc, 0x79, 0xbe, 0x4d, 0xbd, 0xf2, 0x3e, 
	0x32, 0xe5, 0x37, 0xbe, 0x1a, 0x80, 0xd9, 0x3e, 0x7b, 0x5f, 0x7f, 0x3e, 
	0x76, 0x02, 0x10, 0xbf, 0x84, 0xee, 0x21, 0xbd, 0x8e, 0x6d, 0xe7, 0x3e, 
	0x00, 0x45, 0xb6, 0x3c, 0xf5, 0x5b, 0xc7, 0x3e, 0x31, 0x29, 0x17, 0xbc, 
	0x58, 0x7d, 0x96, 0xbe, 0x42, 0x23, 0x4e, 0xbe, 0x8c, 0xbd, 0x11, 0x3e, 
	0x26, 0x76, 0xae, 0xbd, 0x34, 0x7d, 0xaf, 0xbe, 0x63, 0x9e, 0x68, 0xbc, 
	0x93, 0xc9, 0x0e, 0x3e, 0x61, 0xce, 0xbf, 0x3e, 0x1c, 0xc5, 0x71, 0xbe, 
	0x3b, 0x52, 0x05, 0x3d, 0xc7, 0x8b, 0xf1, 0x3d, 0x48, 0x02, 0x2f, 0xbd, 
	0x26, 0xe9, 0x9b, 0xbe, 0xd4, 0xff, 0xf7, 0xbe, 0x20, 0x6a, 0x03, 0xbf, 
	0xe1, 0x5d, 0xda, 0x3e, 0xed, 0x16, 0x06, 0xbf, 0x93, 0x1d, 0x72, 0xbe, 
	0x45, 0x1a, 0x20, 0xbf, 0x58, 0x0b, 0x8e, 0x3e, 0x40, 0x08, 0x57, 0xbd, 
	0xc2, 0x33, 0xeb, 0x3c, 0x2f, 0x60, 0xee, 0xbe, 0x48, 0x38, 0xdb, 0xbd, 
	0x71, 0x8d, 0xb7, 0xbe, 0x6e, 0x04, 0x5d, 0xbe, 0xc2, 0xae, 0x4c, 0x3e, 
	0x34, 0x69, 0x5b, 0x3d, 0x30, 0x33, 0x24, 0xbe, 0x82, 0xa2, 0xe9, 0xbe, 
	0xb2, 0x21, 0xc7, 0x3e, 0xe9, 0xc8, 0xce, 0x3e, 0x07, 0x3c, 0x9f, 0xbe, 
	0xc7, 0xe1, 0x94, 0x3e, 0x38, 0xc0, 0xbd, 0xbd, 0x00, 0xf9, 0xaa, 0xbe, 
	0xf4, 0x6f, 0xa7, 0xbe, 0x2a, 0xff, 0xff, 0xff, 0x10, 0x00, 0x00, 0x00, 
	0x03, 0x00, 0x00, 0x00, 0x10, 0x00, 0x00, 0x00, 0x30, 0x00, 0x00, 0x00, 
	0x01, 0x00, 0x00, 0x00, 0x10, 0x00, 0x00, 0x00, 0x1e, 0x00, 0x00, 0x00, 
	0x73, 0x65, 0x71, 0x75, 0x65, 0x6e, 0x74, 0x69, 0x61, 0x6c, 0x2f, 0x64, 
	0x65, 0x6e, 0x73, 0x65, 0x5f, 0x31, 0x2f, 0x4d, 0x61, 0x74, 0x4d, 0x75, 
	0x6c, 0x5f, 0x62, 0x69, 0x61, 0x73, 0x00, 0x00, 0x78, 0xfe, 0xff, 0xff, 
	0x40, 0x00, 0x00, 0x00, 0xc5, 0x70, 0xb7, 0xbe, 0x00, 0x00, 0x00, 0x00, 
	0xae, 0x4c, 0x5c, 0xbd, 0x5a, 0x90, 0x0d, 0xbe, 0x1b, 0x48, 0x58, 0x3c, 
	0xb0, 0x16, 0xe6, 0xbe, 0x25, 0x0e, 0x7e, 0xbb, 0xd6, 0x19, 0x2c, 0xbe, 
	0x60, 0x6a, 0xcd, 0x3e, 0x8e, 0xae, 0x3d, 0xbe, 0x8b, 0x3f, 0x8a, 0xbb, 
	0x30, 0x55, 0x74, 0x3e, 0xb0, 0x65, 0x41, 0x3d, 0x8c, 0xb2, 0xda, 0xbe, 
	0x15, 0x08, 0xc2, 0x3e, 0x88, 0x90, 0x98, 0x3c, 0xb2, 0xff, 0xff, 0xff, 
	0x10, 0x00, 0x00, 0x00, 0x02, 0x00, 0x00, 0x00, 0x10, 0x00, 0x00, 0x00, 
	0x30, 0x00, 0x00, 0x00, 0x01, 0x00, 0x00, 0x00, 0x01, 0x00, 0x00, 0x00, 
	0x1e, 0x00, 0x00, 0x00, 0x73, 0x65, 0x71, 0x75, 0x65, 0x6e, 0x74, 0x69, 
	0x61, 0x6c, 0x2f, 0x64, 0x65, 0x6e, 0x73, 0x65, 0x5f, 0x32, 0x2f, 0x4d, 
	0x61, 0x74, 0x4d, 0x75, 0x6c, 0x5f, 0x62, 0x69, 0x61, 0x73, 0x00, 0x00, 
	0x00, 0xff, 0xff, 0xff, 0x04, 0x00, 0x00, 0x00, 0xb4, 0x1e, 0x45, 0xbe, 
	0x00, 0x00, 0x0e, 0x00, 0x14, 0x00, 0x04, 0x00, 0x00, 0x00, 0x08, 0x00, 
	0x0c, 0x00, 0x10, 0x00, 0x0e, 0x00, 0x00, 0x00, 0x10, 0x00, 0x00, 0x00, 
	0x01, 0x00, 0x00, 0x00, 0x14, 0x00, 0x00, 0x00, 0x48, 0x00, 0x00, 0x00, 
	0x02, 0x00, 0x00, 0x00, 0x01, 0x00, 0x00, 0x00, 0x10, 0x00, 0x00, 0x00, 
	0x32, 0x00, 0x00, 0x00, 0x73, 0x65, 0x71, 0x75, 0x65, 0x6e, 0x74, 0x69, 
	0x61, 0x6c, 0x2f, 0x64, 0x65, 0x6e, 0x73, 0x65, 0x5f, 0x32, 0x2f, 0x4d, 
	0x61, 0x74, 0x4d, 0x75, 0x6c, 0x2f, 0x52, 0x65, 0x61, 0x64, 0x56, 0x61, 
	0x72, 0x69, 0x61, 0x62, 0x6c, 0x65, 0x4f, 0x70, 0x2f, 0x74, 0x72, 0x61, 
	0x6e, 0x73, 0x70, 0x6f, 0x73, 0x65, 0x00, 0x00, 0x74, 0xff, 0xff, 0xff, 
	0x40, 0x00, 0x00, 0x00, 0x48, 0x58, 0x52, 0x3f, 0x72, 0x10, 0x8a, 0x3e, 
	0x02, 0x35, 0xb9, 0x3e, 0xf3, 0x41, 0x2d, 0x3e, 0xb0, 0x99, 0xcb, 0xbe, 
	0xae, 0xd0, 0xba, 0x3f, 0xf0, 0xd6, 0xa0, 0xb7, 0xa0, 0x8e, 0xd4, 0x3e, 
	0x10, 0xf4, 0x9e, 0x3f, 0x6f, 0x01, 0x56, 0x3e, 0xe4, 0x9f, 0xb0, 0xbe, 
	0x49, 0xfe, 0x51, 0xbf, 0x37, 0x95, 0xab, 0xbe, 0xe4, 0x4d, 0x53, 0x3f, 
	0xe0, 0x23, 0x27, 0xbf, 0x88, 0x4d, 0x06, 0x3f, 0x03, 0x00, 0x00, 0x00, 
	0x98, 0x00, 0x00, 0x00, 0x44, 0x00, 0x00, 0x00, 0x04, 0x00, 0x00, 0x00, 
	0x88, 0xff, 0xff, 0xff, 0x00, 0x00, 0x00, 0x08, 0x10, 0x00, 0x00, 0x00, 
	0x1c, 0x00, 0x00, 0x00, 0x28, 0x00, 0x00, 0x00, 0x1c, 0x00, 0x00, 0x00, 
	0x03, 0x00, 0x00, 0x00, 0x07, 0x00, 0x00, 0x00, 0x08, 0x00, 0x00, 0x00, 
	0x09, 0x00, 0x00, 0x00, 0x01, 0x00, 0x00, 0x00, 0x00, 0x00, 0x00, 0x00, 
	0x00, 0x00, 0x00, 0x00, 0x04, 0x00, 0x04, 0x00, 0x04, 0x00, 0x00, 0x00, 
	0xc4, 0xff, 0xff, 0xff, 0x00, 0x00, 0x00, 0x08, 0x10, 0x00, 0x00, 0x00, 
	0x1c, 0x00, 0x00, 0x00, 0x24, 0x00, 0x00, 0x00, 0x1c, 0x00, 0x00, 0x00, 
	0x03, 0x00, 0x00, 0x00, 0x04, 0x00, 0x00, 0x00, 0x05, 0x00, 0x00, 0x00, 
	0x06, 0x00, 0x00, 0x00, 0x01, 0x00, 0x00, 0x00, 0x07, 0x00, 0x00, 0x00, 
	0x00, 0x00, 0x00, 0x00, 0x8e, 0xff, 0xff, 0xff, 0x00, 0x00, 0x00, 0x01, 
	0x14, 0x00, 0x18, 0x00, 0x00, 0x00, 0x08, 0x00, 0x0c, 0x00, 0x07, 0x00, 
	0x10, 0x00, 0x00, 0x00, 0x00, 0x00, 0x14, 0x00, 0x14, 0x00, 0x00, 0x00, 
	0x00, 0x00, 0x00, 0x08, 0x10, 0x00, 0x00, 0x00, 0x1c, 0x00, 0x00, 0x00, 
	0x24, 0x00, 0x00, 0x00, 0x1c, 0x00, 0x00, 0x00, 0x03, 0x00, 0x00, 0x00, 
	0x01, 0x00, 0x00, 0x00, 0x02, 0x00, 0x00, 0x00, 0x03, 0x00, 0x00, 0x00, 
	0x01, 0x00, 0x00, 0x00, 0x04, 0x00, 0x00, 0x00, 0x00, 0x00, 0x00, 0x00, 
	0xde, 0xff, 0xff, 0xff, 0x00, 0x00, 0x00, 0x01, 0x01, 0x00, 0x00, 0x00, 
	0x04, 0x00, 0x00, 0x00, 0xfa, 0xff, 0xff, 0xff, 0x00, 0x09, 0x06, 0x00, 
	0x06, 0x00, 0x05, 0x00, 0x06, 0x00, 0x00, 0x00, 0x00, 0x09, 0x06, 0x00, 
	0x08, 0x00, 0x07, 0x00, 0x06, 0x00, 0x00, 0x00, 0x00, 0x00, 0x00, 0x09
};
const int model_data_len = 2700;